1111111100010010
0000000100111011
1111111111111010
0000000111010000
1111111101001011
1111111100001011
1111111110011011
1111111111101101
1111111100110010
0000000110101111
0000000101111111
1111111010001010
1111110100111110
0000001100101110
1111111011100101
1111110011110100
0000000001000100
0000001110011001
0000000101110010
1111110110111111
0000000110000110
1111111100000110
1111110011110110
0000000001110010
0000000010101011
0000000000010010
1111111011011011
0000001100101101
0000010000001000
1111111110010110
0000000010101001
1111110011001111
1111100101000001
1111101000111101
0000001111100001
0000001101000001
0000010011100101
0000000111100010
0000000010101111
1111101101111101